{"vocab": {"<pad>": 0, "<unk>": 1, "<bos>": 2, "<eos>": 3, "<|system|>": 4, "<|user|>": 5, "<|assistant|>": 6, "<|end|>": 7, "Ā": 8, "ā": 9, "Ă": 10, "ă": 11, "Ą": 12, "ą": 13, "Ć": 14, "ć": 15, "Ĉ": 16, "ĉ": 17, "Ċ": 18, "ċ": 19, "Č": 20, "č": 21, "Ď": 22, "ď": 23, "Đ": 24, "đ": 25, "Ē": 26, "ē": 27, "Ĕ": 28, "ĕ": 29, "Ė": 30, "ė": 31, "Ę": 32, "ę": 33, "Ě": 34, "ě": 35, "Ĝ": 36, "ĝ": 37, "Ğ": 38, "ğ": 39, "Ġ": 40, "!": 41, "\"": 42, "#": 43, "$": 44, "%": 45, "&": 46, "'": 47, "(": 48, ")": 49, "*": 50, "+": 51, ",": 52, "-": 53, ".": 54, "/": 55, "0": 56, "1": 57, "2": 58, "3": 59, "4": 60, "5": 61, "6": 62, "7": 63, "8": 64, "9": 65, ":": 66, ";": 67, "<": 68, "=": 69, ">": 70, "?": 71, "@": 72, "A": 73, "B": 74, "C": 75, "D": 76, "E": 77, "F": 78, "G": 79, "H": 80, "I": 81, "J": 82, "K": 83, "L": 84, "M": 85, "N": 86, "O": 87, "P": 88, "Q": 89, "R": 90, "S": 91, "T": 92, "U": 93, "V": 94, "W": 95, "X": 96, "Y": 97, "Z": 98, "[": 99, "\\": 100, "]": 101, "^": 102, "_": 103, "`": 104, "a": 105, "b": 106, "c": 107, "d": 108, "e": 109, "f": 110, "g": 111, "h": 112, "i": 113, "j": 114, "k": 115, "l": 116, "m": 117, "n": 118, "o": 119, "p": 120, "q": 121, "r": 122, "s": 123, "t": 124, "u": 125, "v": 126, "w": 127, "x": 128, "y": 129, "z": 130, "{": 131, "|": 132, "}": 133, "~": 134, "ġ": 135, "Ģ": 136, "ģ": 137, "Ĥ": 138, "ĥ": 139, "Ħ": 140, "ħ": 141, "Ĩ": 142, "ĩ": 143, "Ī": 144, "ī": 145, "Ĭ": 146, "ĭ": 147, "Į": 148, "į": 149, "İ": 150, "ı": 151, "Ĳ": 152, "ĳ": 153, "Ĵ": 154, "ĵ": 155, "Ķ": 156, "ķ": 157, "ĸ": 158, "Ĺ": 159, "ĺ": 160, "Ļ": 161, "ļ": 162, "Ľ": 163, "ľ": 164, "Ŀ": 165, "ŀ": 166, "Ł": 167, "ł": 168, "¡": 169, "¢": 170, "£": 171, "¤": 172, "¥": 173, "¦": 174, "§": 175, "¨": 176, "©": 177, "ª": 178, "«": 179, "¬": 180, "Ń": 181, "®": 182, "¯": 183, "°": 184, "±": 185, "²": 186, "³": 187, "´": 188, "µ": 189, "¶": 190, "·": 191, "¸": 192, "¹": 193, "º": 194, "»": 195, "¼": 196, "½": 197, "¾": 198, "¿": 199, "À": 200, "Á": 201, "Â": 202, "Ã": 203, "Ä": 204, "Å": 205, "Æ": 206, "Ç": 207, "È": 208, "É": 209, "Ê": 210, "Ë": 211, "Ì": 212, "Í": 213, "Î": 214, "Ï": 215, "Ð": 216, "Ñ": 217, "Ò": 218, "Ó": 219, "Ô": 220, "Õ": 221, "Ö": 222, "×": 223, "Ø": 224, "Ù": 225, "Ú": 226, "Û": 227, "Ü": 228, "Ý": 229, "Þ": 230, "ß": 231, "à": 232, "á": 233, "â": 234, "ã": 235, "ä": 236, "å": 237, "æ": 238, "ç": 239, "è": 240, "é": 241, "ê": 242, "ë": 243, "ì": 244, "í": 245, "î": 246, "ï": 247, "ð": 248, "ñ": 249, "ò": 250, "ó": 251, "ô": 252, "õ": 253, "ö": 254, "÷": 255, "ø": 256, "ù": 257, "ú": 258, "û": 259, "ü": 260, "ý": 261, "þ": 262, "ÿ": 263, "in": 264, "at": 265, "er": 266, "en": 267, "or": 268, "Ġt": 269, "Ġs": 270, "Ġc": 271, "on": 272, "ra": 273, "st": 274, "ing": 275, "al": 276, "Ġb": 277, "as": 278, "ti": 279, "em": 280, "ar": 281, "ro": 282, "ch": 283, "Ġw": 284, "Ġp": 285, "an": 286, "el": 287, "ati": 288, "et": 289, "ine": 290, "Ġl": 291, "Ġd": 292, "Ġf": 293, "Ġa": 294, "Ġo": 295, "ation": 296, "enc": 297, "orm": 298, "li": 299, "ig": 300, "ver": 301, "qu": 302, "Ġr": 303, "Ġth": 304, "Ġm": 305, "id": 306, "me": 307, "pl": 308, "ca": 309, "yst": 310, "ystem": 311, "est": 312, "ex": 313, "ent": 314, "ary": 315, "un": 316, "is": 317, "bs": 318, "row": 319, "rain": 320, "ser": 321, "ate": 322, "igh": 323, "ight": 324, "ok": 325, "oken": 326, "os": 327, "ence": 328, "emor": 329, "emory": 330, "Ġv": 331, "ork": 332, "tion": 333, "Ġqu": 334, "mu": 335, "norm": 336, "Ġsystem": 337, "tra": 338, "Ġcli": 339, "Ġde": 340, "Ġcon": 341, "Ġbrow": 342, "Ġfine": 343, "Ġabs": 344, "Ġtoken": 345, "Ġfo": 346, "Ġro": 347, "Ġmemory": 348, "Ġca": 349, "Ġch": 350, "Ġben": 351, "Ġu": 352, "ide": 353, "atas": 354, "ataset": 355, "od": 356, "odel": 357, "odels": 358, "oca": 359, "ocab": 360, "asst": 361, "atenc": 362, "atency": 363, "erpl": 364, "erplex": 365, "erplexi": 366, "erplexit": 367, "erplexity": 368, "az": 369, "azy": 370, "mean": 371, "Ġside": 372, "ot": 373, "cel": 374, "anti": 375, "antiz": 376, "antize": 377, "raining": 378, "unti": 379, "untime": 380, "vers": 381, "versation": 382, "versational": 383, "Ġtest": 384, "asm": 385, "we": 386, "web": 387, "na": 388, "nai": 389, "ran": 390, "rans": 391, "ransf": 392, "ransform": 393, "ransformer": 394, "ear": 395, "earn": 396, "earning": 397, "ic": 398, "ick": 399, "ang": 400, "angu": 401, "angua": 402, "anguag": 403, "anguage": 404, "plo": 405, "ploy": 406, "alid": 407, "alidation": 408, "atch": 409, "osine": 410, "Ġdataset": 411, "ern": 412, "ernary": 413, "ell": 414, "ello": 415, "pp": 416, "pping": 417, "ms": 418, "msnorm": 419, "etw": 420, "etwork": 421, "cal": 422, "caling": 423, "Ġthis": 424, "wig": 425, "wigl": 426, "wiglu": 427, "cay": 428, "si": 429, "sist": 430, "sistan": 431, "sistant": 432, "equ": 433, "equence": 434, "tati": 435, "tatic": 436, "rad": 437, "radi": 438, "radient": 439, "im": 440, "imat": 441, "imator": 442, "eight": 443, "rou": 444, "roug": 445, "rough": 446, "Ġvocab": 447, "Ġlatency": 448, "traight": 449, "og": 450, "Ġoasst": 451, "tex": 452, "text": 453, "ali": 454, "aliz": 455, "alization": 456, "ho": 457, "how": 458, "howc": 459, "howcas": 460, "howcase": 461, "ele": 462, "elec": 463, "elect": 464, "armu": 465, "armup": 466, "fer": 467, "ference": 468, "Ġlazy": 469, "Ġabsmean": 470, "us": 471, "usal": 472, "Ġmodels": 473, "Ġruntime": 474, "pti": 475, "ptim": 476, "ptimal": 477, "une": 478, "Ġbrowser": 479, "Ġquantize": 480, "Ġtraining": 481, "Ġver": 482, "Ġvercel": 483, "be": 484, "bed": 485, "bedd": 486, "bedding": 487, "Ġperplexity": 488, "ten": 489, "tention": 490, "Ġrate": 491, "otp": 492, "otpr": 493, "otprin": 494, "otprint": 495, "Ġconversational": 496, "ort": 497, "ortf": 498, "ortfo": 499, "ortfoli": 500, "ortfolio": 501, "gine": 502, "gineer": 503, "gineering": 504, "osi": 505, "osition": 506, "Ġthe": 507, "Ġfineweb": 508, "ara": 509, "aram": 510, "aramet": 511, "arameter": 512, "arameters": 513, "Ġwasm": 514, "orl": 515, "orld": 516, "Ġquick": 517, "che": 518, "Ġlearning": 519, "ret": 520, "retrain": 521, "ma": 522, "max": 523, "um": 524, "ump": 525, "umps": 526, "Ġdeploy": 527, "Ġbatch": 528, "ny": 529, "Ġvalidation": 530, "Ġbnai": 531, "Ġtransformer": 532, "cc": 533, "ccu": 534, "ccumu": 535, "ccumul": 536, "ccumulate": 537, "Ġclient": 538, "Ġlanguage": 539, "inch": 540, "inchi": 541, "inchil": 542, "inchill": 543, "inchilla": 544, "Ġrmsnorm": 545, "Ġclipping": 546, "Ġscaling": 547, "Ġternary": 548, "Ġstatic": 549, "Ġsystems": 550, "Ġcosine": 551, "Ġswiglu": 552, "orker": 553, "Ġest": 554, "Ġestimator": 555, "Ġas": 556, "Ġassistant": 557, "Ġn": 558, "Ġnetwork": 559, "Ġh": 560, "Ġhello": 561, "Ġis": 562, "Ġdecay": 563, "Ġrot": 564, "Ġrotary": 565, "Ġweight": 566, "Ġstraight": 567, "Ġfox": 568, "Ġsequence": 569, "Ġdog": 570, "chm": 571, "chmar": 572, "chmark": 573, "Ġg": 574, "Ġgradient": 575, "Ġthrough": 576, "Ġcontext": 577, "Ġof": 578, "Ġnorm": 579, "Ġnormalization": 580, "Ġwarmup": 581, "Ġem": 582, "Ġembedding": 583, "Ġportfolio": 584, "Ġoptimal": 585, "Ġbrown": 586, "Ġselect": 587, "ltra": 588, "ltrach": 589, "ltrachat": 590, "Ġat": 591, "Ġattention": 592, "Ġshowcase": 593, "Ġfootprint": 594, "Ġtokens": 595, "Ġcausal": 596, "Ġin": 597, "Ġinference": 598, "Ġrom": 599, "Ġabsmax": 600, "Ġcache": 601, "Ġj": 602, "Ġjumps": 603, "Ġparameters": 604, "Ġen": 605, "Ġengineering": 606, "Ġposition": 607, "Ġtune": 608, "Ġbenny": 609, "Ġpretrain": 610, "Ġworld": 611, "Ġuser": 612, "Ġaccumulate": 613, "Ġchinchilla": 614, "Ġover": 615, "Ġchat": 616, "Ġworker": 617, "Ġbenchmark": 618, "Ġultrachat": 619, "Th": 620, "Memory": 621, "Fine": 622, "Ben": 623, "System": 624, "Cli": 625, "De": 626, "Ch": 627, "Ca": 628, "Fo": 629, "Con": 630, "Qu": 631, "Abs": 632, "Token": 633, "Brow": 634, "Of": 635, "Models": 636, "User": 637, "Tune": 638, "Cosine": 639, "Test": 640, "Hello": 641, "Ro": 642, "Rom": 643, "Ternary": 644, "Sequence": 645, "Gradient": 646, "Perplexity": 647, "Over": 648, "Showcase": 649, "Language": 650, "Fox": 651, "Bnai": 652, "Accumulate": 653, "Dataset": 654, "World": 655, "In": 656, "Inference": 657, "Network": 658, "Client": 659, "This": 660, "Select": 661, "Through": 662, "Decay": 663, "Pretrain": 664, "Benchmark": 665, "Rot": 666, "Rotary": 667, "Causal": 668, "Rate": 669, "Transformer": 670, "Oasst": 671, "Is": 672, "Ultrachat": 673, "The": 674, "En": 675, "Engineering": 676, "Chinchilla": 677, "Position": 678, "Absmean": 679, "Wasm": 680, "Weight": 681, "Validation": 682, "Lazy": 683, "Benny": 684, "Vocab": 685, "Worker": 686, "Norm": 687, "Normalization": 688, "Ver": 689, "Vercel": 690, "Side": 691, "Training": 692, "Scaling": 693, "Conversational": 694, "Swiglu": 695, "Quantize": 696, "Dog": 697, "Fineweb": 698, "Parameters": 699, "As": 700, "Assistant": 701, "Context": 702, "Clipping": 703, "Chat": 704, "Learning": 705, "Tokens": 706, "Batch": 707, "Systems": 708, "Deploy": 709, "Quick": 710, "Straight": 711, "Optimal": 712, "Latency": 713, "Rmsnorm": 714, "Brown": 715, "Cache": 716, "Static": 717, "Jumps": 718, "Warmup": 719, "Absmax": 720, "Est": 721, "Estimator": 722, "Runtime": 723, "At": 724, "Attention": 725, "Footprint": 726, "Browser": 727, "Em": 728, "Embedding": 729, "Portfolio": 730}, "merges": [["i", "n"], ["a", "t"], ["e", "r"], ["e", "n"], ["o", "r"], ["Ġ", "t"], ["Ġ", "s"], ["Ġ", "c"], ["o", "n"], ["r", "a"], ["s", "t"], ["in", "g"], ["a", "l"], ["Ġ", "b"], ["a", "s"], ["t", "i"], ["e", "m"], ["a", "r"], ["r", "o"], ["c", "h"], ["Ġ", "w"], ["Ġ", "p"], ["a", "n"], ["e", "l"], ["at", "i"], ["e", "t"], ["in", "e"], ["Ġ", "l"], ["Ġ", "d"], ["Ġ", "f"], ["Ġ", "a"], ["Ġ", "o"], ["ati", "on"], ["en", "c"], ["or", "m"], ["l", "i"], ["i", "g"], ["v", "er"], ["q", "u"], ["Ġ", "r"], ["Ġt", "h"], ["Ġ", "m"], ["i", "d"], ["m", "e"], ["p", "l"], ["c", "a"], ["y", "st"], ["yst", "em"], ["e", "st"], ["e", "x"], ["en", "t"], ["ar", "y"], ["u", "n"], ["i", "s"], ["b", "s"], ["ro", "w"], ["ra", "in"], ["s", "er"], ["at", "e"], ["ig", "h"], ["igh", "t"], ["o", "k"], ["ok", "en"], ["o", "s"], ["enc", "e"], ["em", "or"], ["emor", "y"], ["Ġ", "v"], ["or", "k"], ["ti", "on"], ["Ġ", "qu"], ["m", "u"], ["n", "orm"], ["Ġs", "ystem"], ["t", "ra"], ["Ġc", "li"], ["Ġd", "e"], ["Ġc", "on"], ["Ġb", "row"], ["Ġf", "ine"], ["Ġa", "bs"], ["Ġt", "oken"], ["Ġf", "o"], ["Ġ", "ro"], ["Ġm", "emory"], ["Ġc", "a"], ["Ġc", "h"], ["Ġb", "en"], ["Ġ", "u"], ["id", "e"], ["at", "as"], ["atas", "et"], ["o", "d"], ["od", "el"], ["odel", "s"], ["o", "ca"], ["oca", "b"], ["as", "st"], ["at", "enc"], ["atenc", "y"], ["er", "pl"], ["erpl", "ex"], ["erplex", "i"], ["erplexi", "t"], ["erplexit", "y"], ["a", "z"], ["az", "y"], ["me", "an"], ["Ġs", "ide"], ["o", "t"], ["c", "el"], ["an", "ti"], ["anti", "z"], ["antiz", "e"], ["rain", "ing"], ["un", "ti"], ["unti", "me"], ["ver", "s"], ["vers", "ation"], ["versation", "al"], ["Ġt", "est"], ["as", "m"], ["w", "e"], ["we", "b"], ["n", "a"], ["na", "i"], ["ra", "n"], ["ran", "s"], ["rans", "f"], ["ransf", "orm"], ["ransform", "er"], ["e", "ar"], ["ear", "n"], ["earn", "ing"], ["i", "c"], ["ic", "k"], ["an", "g"], ["ang", "u"], ["angu", "a"], ["angua", "g"], ["anguag", "e"], ["pl", "o"], ["plo", "y"], ["al", "id"], ["alid", "ation"], ["at", "ch"], ["os", "ine"], ["Ġd", "ataset"], ["er", "n"], ["ern", "ary"], ["el", "l"], ["ell", "o"], ["p", "p"], ["pp", "ing"], ["m", "s"], ["ms", "norm"], ["et", "w"], ["etw", "ork"], ["c", "al"], ["cal", "ing"], ["Ġth", "is"], ["w", "ig"], ["wig", "l"], ["wigl", "u"], ["ca", "y"], ["s", "i"], ["si", "st"], ["sist", "an"], ["sistan", "t"], ["e", "qu"], ["equ", "ence"], ["t", "ati"], ["tati", "c"], ["ra", "d"], ["rad", "i"], ["radi", "ent"], ["i", "m"], ["im", "at"], ["imat", "or"], ["e", "ight"], ["ro", "u"], ["rou", "g"], ["roug", "h"], ["Ġv", "ocab"], ["Ġl", "atency"], ["tra", "ight"], ["o", "g"], ["Ġo", "asst"], ["t", "ex"], ["tex", "t"], ["al", "i"], ["ali", "z"], ["aliz", "ation"], ["h", "o"], ["ho", "w"], ["how", "c"], ["howc", "as"], ["howcas", "e"], ["el", "e"], ["ele", "c"], ["elec", "t"], ["ar", "mu"], ["armu", "p"], ["f", "er"], ["fer", "ence"], ["Ġl", "azy"], ["Ġabs", "mean"], ["u", "s"], ["us", "al"], ["Ġm", "odels"], ["Ġr", "untime"], ["p", "ti"], ["pti", "m"], ["ptim", "al"], ["un", "e"], ["Ġbrow", "ser"], ["Ġqu", "antize"], ["Ġt", "raining"], ["Ġ", "ver"], ["Ġver", "cel"], ["b", "e"], ["be", "d"], ["bed", "d"], ["bedd", "ing"], ["Ġp", "erplexity"], ["t", "en"], ["ten", "tion"], ["Ġr", "ate"], ["ot", "p"], ["otp", "r"], ["otpr", "in"], ["otprin", "t"], ["Ġcon", "versational"], ["or", "t"], ["ort", "f"], ["ortf", "o"], ["ortfo", "li"], ["ortfoli", "o"], ["g", "ine"], ["gine", "er"], ["gineer", "ing"], ["os", "i"], ["osi", "tion"], ["Ġth", "e"], ["Ġfine", "web"], ["a", "ra"], ["ara", "m"], ["aram", "et"], ["aramet", "er"], ["arameter", "s"], ["Ġw", "asm"], ["or", "l"], ["orl", "d"], ["Ġqu", "ick"], ["ch", "e"], ["Ġl", "earning"], ["r", "et"], ["ret", "rain"], ["m", "a"], ["ma", "x"], ["u", "m"], ["um", "p"], ["ump", "s"], ["Ġde", "ploy"], ["Ġb", "atch"], ["n", "y"], ["Ġv", "alidation"], ["Ġb", "nai"], ["Ġt", "ransformer"], ["c", "c"], ["cc", "u"], ["ccu", "mu"], ["ccumu", "l"], ["ccumul", "ate"], ["Ġcli", "ent"], ["Ġl", "anguage"], ["in", "ch"], ["inch", "i"], ["inchi", "l"], ["inchil", "l"], ["inchill", "a"], ["Ġr", "msnorm"], ["Ġcli", "pping"], ["Ġs", "caling"], ["Ġt", "ernary"], ["Ġs", "tatic"], ["Ġsystem", "s"], ["Ġc", "osine"], ["Ġs", "wiglu"], ["ork", "er"], ["Ġ", "est"], ["Ġest", "imator"], ["Ġ", "as"], ["Ġas", "sistant"], ["Ġ", "n"], ["Ġn", "etwork"], ["Ġ", "h"], ["Ġh", "ello"], ["Ġ", "is"], ["Ġde", "cay"], ["Ġro", "t"], ["Ġrot", "ary"], ["Ġw", "eight"], ["Ġs", "traight"], ["Ġfo", "x"], ["Ġs", "equence"], ["Ġd", "og"], ["ch", "m"], ["chm", "ar"], ["chmar", "k"], ["Ġ", "g"], ["Ġg", "radient"], ["Ġth", "rough"], ["Ġcon", "text"], ["Ġo", "f"], ["Ġ", "norm"], ["Ġnorm", "alization"], ["Ġw", "armup"], ["Ġ", "em"], ["Ġem", "bedding"], ["Ġp", "ortfolio"], ["Ġo", "ptimal"], ["Ġbrow", "n"], ["Ġs", "elect"], ["l", "tra"], ["ltra", "ch"], ["ltrach", "at"], ["Ġ", "at"], ["Ġat", "tention"], ["Ġs", "howcase"], ["Ġfo", "otprint"], ["Ġtoken", "s"], ["Ġca", "usal"], ["Ġ", "in"], ["Ġin", "ference"], ["Ġro", "m"], ["Ġabs", "max"], ["Ġca", "che"], ["Ġ", "j"], ["Ġj", "umps"], ["Ġp", "arameters"], ["Ġ", "en"], ["Ġen", "gineering"], ["Ġp", "osition"], ["Ġt", "une"], ["Ġben", "ny"], ["Ġp", "retrain"], ["Ġw", "orld"], ["Ġu", "ser"], ["Ġa", "ccumulate"], ["Ġch", "inchilla"], ["Ġo", "ver"], ["Ġch", "at"], ["Ġw", "orker"], ["Ġben", "chmark"], ["Ġu", "ltrachat"], ["T", "h"], ["M", "emory"], ["F", "ine"], ["B", "en"], ["S", "ystem"], ["C", "li"], ["D", "e"], ["C", "h"], ["C", "a"], ["F", "o"], ["C", "on"], ["Q", "u"], ["A", "bs"], ["T", "oken"], ["B", "row"], ["O", "f"], ["M", "odels"], ["U", "ser"], ["T", "une"], ["C", "osine"], ["T", "est"], ["H", "ello"], ["R", "o"], ["Ro", "m"], ["T", "ernary"], ["S", "equence"], ["G", "radient"], ["P", "erplexity"], ["O", "ver"], ["S", "howcase"], ["L", "anguage"], ["Fo", "x"], ["B", "nai"], ["A", "ccumulate"], ["D", "ataset"], ["W", "orld"], ["I", "n"], ["In", "ference"], ["N", "etwork"], ["Cli", "ent"], ["Th", "is"], ["S", "elect"], ["Th", "rough"], ["De", "cay"], ["P", "retrain"], ["Ben", "chmark"], ["R", "ot"], ["Rot", "ary"], ["Ca", "usal"], ["R", "ate"], ["T", "ransformer"], ["O", "asst"], ["I", "s"], ["U", "ltrachat"], ["Th", "e"], ["E", "n"], ["En", "gineering"], ["Ch", "inchilla"], ["P", "osition"], ["Abs", "mean"], ["W", "asm"], ["W", "eight"], ["V", "alidation"], ["L", "azy"], ["Ben", "ny"], ["V", "ocab"], ["W", "orker"], ["N", "orm"], ["Norm", "alization"], ["V", "er"], ["Ver", "cel"], ["S", "ide"], ["T", "raining"], ["S", "caling"], ["Con", "versational"], ["S", "wiglu"], ["Qu", "antize"], ["D", "og"], ["Fine", "web"], ["P", "arameters"], ["A", "s"], ["As", "sistant"], ["Con", "text"], ["Cli", "pping"], ["Ch", "at"], ["L", "earning"], ["Token", "s"], ["B", "atch"], ["System", "s"], ["De", "ploy"], ["Qu", "ick"], ["S", "traight"], ["O", "ptimal"], ["L", "atency"], ["R", "msnorm"], ["Brow", "n"], ["Ca", "che"], ["S", "tatic"], ["J", "umps"], ["W", "armup"], ["Abs", "max"], ["E", "st"], ["Est", "imator"], ["R", "untime"], ["A", "t"], ["At", "tention"], ["Fo", "otprint"], ["Brow", "ser"], ["E", "m"], ["Em", "bedding"], ["P", "ortfolio"]], "special_tokens": ["<pad>", "<unk>", "<bos>", "<eos>", "<|system|>", "<|user|>", "<|assistant|>", "<|end|>"]}